const unsigned char model[] = {
0x1c, 0x00, 0x00, 0x00, 0x54, 0x46, 0x4c, 0x33, 0x14, 0x00, 0x20, 0x00, 
0x1c, 0x00, 0x18, 0x00, 0x14, 0x00, 0x10, 0x00, 0x0c, 0x00, 0x00, 0x00, 
0x08, 0x00, 0x04, 0x00, 0x14, 0x00, 0x00, 0x00, 0x1c, 0x00, 0x00, 0x00, 
0x98, 0x00, 0x00, 0x00, 0xf0, 0x00, 0x00, 0x00, 0x98, 0x08, 0x00, 0x00, 
0xa8, 0x08, 0x00, 0x00, 0xa4, 0x0d, 0x00, 0x00, 0x03, 0x00, 0x00, 0x00, 
0x01, 0x00, 0x00, 0x00, 0x10, 0x00, 0x00, 0x00, 0x00, 0x00, 0x0a, 0x00, 
0x10, 0x00, 0x0c, 0x00, 0x08, 0x00, 0x04, 0x00, 0x0a, 0x00, 0x00, 0x00, 
0x0c, 0x00, 0x00, 0x00, 0x1c, 0x00, 0x00, 0x00, 0x3c, 0x00, 0x00, 0x00, 
0x0f, 0x00, 0x00, 0x00, 0x73, 0x65, 0x72, 0x76, 0x69, 0x6e, 0x67, 0x5f, 
0x64, 0x65, 0x66, 0x61, 0x75, 0x6c, 0x74, 0x00, 0x01, 0x00, 0x00, 0x00, 
0x04, 0x00, 0x00, 0x00, 0x90, 0xff, 0xff, 0xff, 0x09, 0x00, 0x00, 0x00, 
0x04, 0x00, 0x00, 0x00, 0x08, 0x00, 0x00, 0x00, 0x6f, 0x75, 0x74, 0x70, 
0x75, 0x74, 0x5f, 0x30, 0x00, 0x00, 0x00, 0x00, 0x01, 0x00, 0x00, 0x00, 
0x04, 0x00, 0x00, 0x00, 0x76, 0xf8, 0xff, 0xff, 0x04, 0x00, 0x00, 0x00, 
0x0c, 0x00, 0x00, 0x00, 0x6b, 0x65, 0x72, 0x61, 0x73, 0x5f, 0x74, 0x65, 
0x6e, 0x73, 0x6f, 0x72, 0x00, 0x00, 0x00, 0x00, 0x02, 0x00, 0x00, 0x00, 
0x34, 0x00, 0x00, 0x00, 0x04, 0x00, 0x00, 0x00, 0xdc, 0xff, 0xff, 0xff, 
0x0c, 0x00, 0x00, 0x00, 0x04, 0x00, 0x00, 0x00, 0x13, 0x00, 0x00, 0x00, 
0x43, 0x4f, 0x4e, 0x56, 0x45, 0x52, 0x53, 0x49, 0x4f, 0x4e, 0x5f, 0x4d, 
0x45, 0x54, 0x41, 0x44, 0x41, 0x54, 0x41, 0x00, 0x08, 0x00, 0x0c, 0x00, 
0x08, 0x00, 0x04, 0x00, 0x08, 0x00, 0x00, 0x00, 0x0b, 0x00, 0x00, 0x00, 
0x04, 0x00, 0x00, 0x00, 0x13, 0x00, 0x00, 0x00, 0x6d, 0x69, 0x6e, 0x5f, 
0x72, 0x75, 0x6e, 0x74, 0x69, 0x6d, 0x65, 0x5f, 0x76, 0x65, 0x72, 0x73, 
0x69, 0x6f, 0x6e, 0x00, 0x0d, 0x00, 0x00, 0x00, 0xa4, 0x07, 0x00, 0x00, 
0x9c, 0x07, 0x00, 0x00, 0x0c, 0x07, 0x00, 0x00, 0xf4, 0x02, 0x00, 0x00, 
0xdc, 0x02, 0x00, 0x00, 0x8c, 0x02, 0x00, 0x00, 0x3c, 0x02, 0x00, 0x00, 
0xac, 0x00, 0x00, 0x00, 0xa4, 0x00, 0x00, 0x00, 0x9c, 0x00, 0x00, 0x00, 
0x94, 0x00, 0x00, 0x00, 0x74, 0x00, 0x00, 0x00, 0x04, 0x00, 0x00, 0x00, 
0x26, 0xf9, 0xff, 0xff, 0x04, 0x00, 0x00, 0x00, 0x60, 0x00, 0x00, 0x00, 
0x10, 0x00, 0x00, 0x00, 0x00, 0x00, 0x00, 0x00, 0x08, 0x00, 0x0e, 0x00, 
0x08, 0x00, 0x04, 0x00, 0x08, 0x00, 0x00, 0x00, 0x10, 0x00, 0x00, 0x00, 
0x24, 0x00, 0x00, 0x00, 0x00, 0x00, 0x06, 0x00, 0x08, 0x00, 0x04, 0x00, 
0x06, 0x00, 0x00, 0x00, 0x04, 0x00, 0x00, 0x00, 0x00, 0x00, 0x00, 0x00, 
0x0c, 0x00, 0x18, 0x00, 0x14, 0x00, 0x10, 0x00, 0x0c, 0x00, 0x04, 0x00, 
0x0c, 0x00, 0x00, 0x00, 0x6d, 0xb5, 0x4a, 0xf2, 0x41, 0xe5, 0xb9, 0xab, 
0x02, 0x00, 0x00, 0x00, 0x02, 0x00, 0x00, 0x00, 0x04, 0x00, 0x00, 0x00, 
0x06, 0x00, 0x00, 0x00, 0x32, 0x2e, 0x31, 0x39, 0x2e, 0x30, 0x00, 0x00, 
0x92, 0xf9, 0xff, 0xff, 0x04, 0x00, 0x00, 0x00, 0x10, 0x00, 0x00, 0x00, 
0x31, 0x2e, 0x35, 0x2e, 0x30, 0x00, 0x00, 0x00, 0x00, 0x00, 0x00, 0x00, 
0x00, 0x00, 0x00, 0x00, 0x38, 0xf4, 0xff, 0xff, 0x3c, 0xf4, 0xff, 0xff, 
0x40, 0xf4, 0xff, 0xff, 0xba, 0xf9, 0xff, 0xff, 0x04, 0x00, 0x00, 0x00, 
0x80, 0x01, 0x00, 0x00, 0xe5, 0xd1, 0x58, 0xbc, 0x07, 0x37, 0x5f, 0xbf, 
0xd0, 0x6b, 0x52, 0xbf, 0x9c, 0x84, 0x5a, 0xbe, 0x12, 0xee, 0x55, 0x3e, 
0x98, 0xab, 0x4e, 0x3e, 0xd4, 0xa8, 0x0a, 0xbf, 0x44, 0xe1, 0xc2, 0x3e, 
0x18, 0x3e, 0x4a, 0x3f, 0x25, 0xa7, 0xaf, 0x3e, 0xa9, 0xae, 0x66, 0x3e, 
0x45, 0x47, 0x18, 0x3e, 0x19, 0x10, 0x67, 0x3e, 0x7d, 0x8a, 0xc7, 0xbe, 
0xdb, 0xa4, 0x01, 0xbf, 0xd1, 0x83, 0xe2, 0xbe, 0x8e, 0x65, 0x60, 0x3e, 
0x36, 0xcb, 0x5a, 0x3e, 0x7f, 0x5f, 0x30, 0xbe, 0x80, 0x9d, 0x5b, 0x3e, 
0x5b, 0x70, 0xc8, 0x3e, 0x12, 0xb2, 0xfd, 0xbe, 0xb2, 0x1e, 0x1d, 0xbd, 
0x88, 0x0d, 0x67, 0x3e, 0x60, 0x5b, 0x09, 0x3d, 0x3e, 0xcf, 0xba, 0xbe, 
0x03, 0x55, 0x6d, 0xbe, 0x81, 0xff, 0x84, 0xbe, 0x9b, 0x91, 0xb3, 0x3e, 
0x6f, 0xf0, 0xef, 0xbb, 0xeb, 0x95, 0xcb, 0x3c, 0x57, 0xcc, 0xb1, 0xbe, 
0x00, 0xab, 0x60, 0xbe, 0xc6, 0x38, 0x17, 0x3e, 0x92, 0x2b, 0xe2, 0x3e, 
0xb2, 0xcc, 0x94, 0xbd, 0x26, 0xe7, 0xd1, 0x3e, 0xc9, 0xe0, 0x3c, 0xbe, 
0x36, 0x92, 0x01, 0x3f, 0xca, 0x9f, 0xd9, 0x3d, 0x9a, 0xd1, 0xb8, 0xbd, 
0xb2, 0xec, 0xb6, 0xbe, 0x30, 0x31, 0x13, 0xbd, 0xce, 0x7d, 0x0a, 0xbe, 
0x34, 0xb5, 0x57, 0xbe, 0xb0, 0xeb, 0x42, 0xbe, 0xc0, 0x8a, 0xf7, 0xbd, 
0x0e, 0x51, 0x69, 0xbe, 0x4c, 0xc1, 0x1f, 0xbe, 0x7e, 0x8f, 0x10, 0x3d, 
0x4a, 0xaf, 0xee, 0x3e, 0x9a, 0x9c, 0x88, 0x3e, 0x54, 0x47, 0x3d, 0x3e, 
0x06, 0x92, 0x0f, 0xbf, 0x9d, 0x83, 0x13, 0x3f, 0xc3, 0xce, 0x37, 0xbe, 
0xd6, 0xd6, 0xa9, 0x3d, 0x67, 0xfb, 0x68, 0x3e, 0x93, 0x00, 0x47, 0x3e, 
0xd3, 0x59, 0x00, 0xbf, 0x26, 0xe6, 0xf9, 0x3e, 0xa4, 0x36, 0x30, 0xbe, 
0xb3, 0x18, 0xa1, 0x3e, 0xc6, 0x11, 0x91, 0x3e, 0xdc, 0x0b, 0xc2, 0xbe, 
0xce, 0x18, 0xb3, 0xb9, 0xbc, 0xdd, 0x59, 0xbe, 0x6d, 0x96, 0x1b, 0x3d, 
0xd1, 0x49, 0x23, 0x3f, 0xf6, 0x5b, 0xaa, 0xbe, 0x19, 0xb4, 0x07, 0x3f, 
0x93, 0x20, 0xb8, 0xbd, 0x59, 0xd3, 0x71, 0x3e, 0x1d, 0xd4, 0xa3, 0x3d, 
0xe9, 0xad, 0x56, 0x3e, 0x2c, 0xf8, 0xb6, 0x3e, 0x9d, 0xaa, 0xd1, 0x3e, 
0x97, 0x2f, 0xf1, 0xbd, 0x69, 0xea, 0x96, 0x3d, 0x7f, 0x0f, 0x72, 0x3e, 
0x0d, 0xa0, 0x8f, 0x3d, 0x8f, 0xb7, 0xd0, 0x3e, 0x70, 0x2d, 0x9c, 0xbe, 
0x2d, 0x77, 0x0f, 0x3f, 0x00, 0x04, 0x1f, 0xbc, 0xbd, 0x94, 0xb3, 0xbe, 
0x4c, 0x3e, 0x9a, 0xbd, 0x66, 0x53, 0x2c, 0xbe, 0x98, 0xb9, 0x8d, 0xbe, 
0x60, 0x5a, 0xe7, 0x3d, 0x91, 0x74, 0xa3, 0xbe, 0xcc, 0x84, 0xa5, 0x3e, 
0x24, 0xe7, 0x99, 0x3c, 0x19, 0x91, 0xf8, 0x3e, 0x11, 0xb0, 0xbd, 0x3e, 
0xd0, 0x14, 0x01, 0xbf, 0x46, 0xfb, 0xff, 0xff, 0x04, 0x00, 0x00, 0x00, 
0x40, 0x00, 0x00, 0x00, 0x0a, 0x96, 0x23, 0xbd, 0x7b, 0x96, 0x32, 0x3c, 
0xac, 0xf8, 0x66, 0xbc, 0x70, 0x0a, 0xa1, 0xbd, 0xb0, 0xb3, 0xb0, 0xbd, 
0x9b, 0xd4, 0x5a, 0x3d, 0x3a, 0xb2, 0x52, 0xbe, 0x00, 0x00, 0x00, 0x00, 
0xa7, 0x49, 0xca, 0x3d, 0xa9, 0x08, 0x7d, 0xbe, 0xef, 0xbe, 0xec, 0x3c, 
0x1a, 0x56, 0x84, 0xbd, 0xbd, 0x75, 0x74, 0x3b, 0xc3, 0x26, 0x8f, 0xbd, 
0x00, 0x00, 0x00, 0x00, 0xc8, 0x01, 0x9a, 0x3d, 0x92, 0xfb, 0xff, 0xff, 
0x04, 0x00, 0x00, 0x00, 0x40, 0x00, 0x00, 0x00, 0xdf, 0x11, 0x9e, 0xbd, 
0xb8, 0x50, 0x23, 0xbc, 0x00, 0x00, 0x00, 0x00, 0x0b, 0x2d, 0xe0, 0xbc, 
0x3e, 0xe1, 0x18, 0x3d, 0x1c, 0x5a, 0x01, 0xbd, 0x87, 0x55, 0xc3, 0x3d, 
0xa2, 0xc0, 0xf0, 0xbc, 0x1f, 0x2a, 0xe0, 0x3a, 0x34, 0x1f, 0x78, 0xbd, 
0x34, 0x91, 0x7d, 0x3d, 0xed, 0xe6, 0x46, 0x3d, 0x65, 0x79, 0x71, 0xbc, 
0xb7, 0x86, 0x7e, 0xbd, 0x95, 0xf8, 0x2a, 0x3c, 0xe3, 0x9b, 0x98, 0xbd, 
0xde, 0xfb, 0xff, 0xff, 0x04, 0x00, 0x00, 0x00, 0x08, 0x00, 0x00, 0x00, 
0x16, 0xa2, 0x58, 0x3d, 0xa0, 0xe5, 0x90, 0x3d, 0xf2, 0xfb, 0xff, 0xff, 
0x04, 0x00, 0x00, 0x00, 0x00, 0x04, 0x00, 0x00, 0xc2, 0x7c, 0xc8, 0x3e, 
0x12, 0xf8, 0x5f, 0x3e, 0x76, 0xed, 0x07, 0x3e, 0xe0, 0xfd, 0x73, 0x3e, 
0x8a, 0x93, 0x9c, 0xbe, 0xc6, 0x56, 0x26, 0xbe, 0x9a, 0x97, 0x62, 0x3e, 
0x71, 0xbe, 0x83, 0x3e, 0x37, 0x5f, 0x89, 0xbe, 0x72, 0x06, 0x93, 0x3e, 
0xb4, 0x32, 0xef, 0x3d, 0xbb, 0xc1, 0xc2, 0xbe, 0x0e, 0xbf, 0x04, 0xbf, 
0x2e, 0xe9, 0x90, 0x3e, 0x8e, 0x95, 0x0f, 0xbe, 0x86, 0xfc, 0x85, 0xbc, 
0xd9, 0x1f, 0x0e, 0x3e, 0x35, 0x2d, 0x7b, 0x3e, 0x60, 0xde, 0xa0, 0xbd, 
0x10, 0x64, 0x95, 0xba, 0x8d, 0x4e, 0xd5, 0xbe, 0x5c, 0x6d, 0x73, 0xbe, 
0x40, 0xa8, 0xc3, 0x3e, 0x0a, 0xd9, 0x76, 0x3e, 0x59, 0x47, 0xa8, 0xbd, 
0x90, 0xd5, 0xdf, 0x3e, 0xc1, 0xc6, 0x9f, 0xbc, 0x38, 0x21, 0xd9, 0x3e, 
0x3d, 0x5b, 0xa3, 0x3e, 0xd8, 0xc3, 0x0d, 0xbf, 0x83, 0xce, 0xbe, 0xbe, 
0x0f, 0x20, 0x15, 0x3e, 0x30, 0xf4, 0x97, 0xbd, 0xd8, 0xd4, 0x58, 0xbe, 
0xce, 0x61, 0x44, 0x3e, 0xdb, 0x29, 0xcd, 0x3e, 0x2a, 0xd8, 0x05, 0x3e, 
0xb2, 0xac, 0x15, 0x3e, 0xcf, 0x83, 0xd1, 0x3e, 0xd0, 0xe8, 0xef, 0x3c, 
0xce, 0x5d, 0x6a, 0xbe, 0x80, 0xf2, 0xae, 0xbb, 0xaa, 0x7c, 0xb2, 0xbe, 
0xbc, 0xfe, 0xe2, 0x3d, 0x6c, 0xc9, 0xf0, 0x3d, 0x70, 0x34, 0x90, 0xbd, 
0x49, 0xb3, 0xb3, 0x3e, 0xd0, 0xa1, 0x23, 0xbe, 0xe3, 0xd3, 0x1b, 0x3e, 
0xf0, 0x27, 0xf6, 0xbc, 0xcc, 0x5b, 0xd5, 0x3d, 0x43, 0x1f, 0x7a, 0xbe, 
0x68, 0x1f, 0x38, 0xbe, 0x66, 0xc0, 0x54, 0xbe, 0x4d, 0xe7, 0x56, 0x3e, 
0x0d, 0x7a, 0xbf, 0xbe, 0xa9, 0x4d, 0xbd, 0xbe, 0xb1, 0xd7, 0x24, 0x3e, 
0x3d, 0x4d, 0xb9, 0xbd, 0x09, 0x8a, 0x29, 0xbd, 0x7a, 0xc0, 0x32, 0x3d, 
0xcd, 0x2e, 0x07, 0x3e, 0x60, 0xec, 0x0d, 0x3c, 0x3c, 0x1e, 0x8d, 0xbe, 
0xbe, 0xd4, 0x7f, 0xbe, 0x64, 0xb8, 0xc2, 0x3e, 0x08, 0x14, 0xab, 0xbd, 
0xe1, 0xd6, 0x68, 0x3e, 0x7a, 0x35, 0x97, 0xbe, 0x49, 0xde, 0x99, 0x3e, 
0xe2, 0x59, 0x73, 0xbd, 0x09, 0x87, 0xd0, 0xbe, 0xd5, 0x02, 0xb1, 0xbe, 
0x07, 0xba, 0x4c, 0x3e, 0xa4, 0x9e, 0x6f, 0x3e, 0xcf, 0x89, 0xb3, 0xbe, 
0xaa, 0x06, 0xac, 0x3e, 0x9a, 0x2e, 0xce, 0x3e, 0x2a, 0x11, 0x0b, 0x3e, 
0x93, 0xd5, 0x19, 0xbe, 0x7a, 0x51, 0x17, 0xbe, 0x33, 0x72, 0x17, 0xbe, 
0x3b, 0x3d, 0xae, 0x3e, 0x68, 0xd1, 0x93, 0xbd, 0x90, 0xe5, 0x3d, 0x3d, 
0xc0, 0xdb, 0x2d, 0xbe, 0xc5, 0x12, 0x09, 0x3e, 0x0d, 0x37, 0x9c, 0x3e, 
0xa8, 0xbb, 0x9c, 0xbd, 0xd4, 0x16, 0x98, 0xbe, 0x32, 0x10, 0x9d, 0x3e, 
0xa3, 0x4e, 0x95, 0xbe, 0xf7, 0x08, 0xb9, 0xbe, 0xff, 0x80, 0x7c, 0x3d, 
0x90, 0x98, 0xaf, 0xbc, 0x58, 0x7d, 0x4b, 0x3e, 0x6d, 0x32, 0x0a, 0x3f, 
0x41, 0x60, 0x52, 0xbe, 0x9b, 0xf3, 0x1b, 0xbe, 0x3d, 0xe7, 0xc1, 0xbd, 
0x4c, 0x28, 0x83, 0x3e, 0x4a, 0xa3, 0xbd, 0x3d, 0x27, 0x0c, 0x9e, 0xbe, 
0xaa, 0x15, 0xa1, 0xbe, 0x38, 0x8e, 0x8c, 0xbe, 0xc9, 0x0d, 0x85, 0x3e, 
0xb7, 0xa0, 0xb0, 0xbd, 0xd9, 0x10, 0xc1, 0x3d, 0x1e, 0x72, 0xe8, 0x3e, 
0xa6, 0x64, 0x1d, 0xbe, 0xa0, 0xe6, 0x93, 0x3c, 0xdb, 0xef, 0xe9, 0x3e, 
0x1c, 0x32, 0xab, 0xbe, 0x70, 0x24, 0x5e, 0xbe, 0x73, 0x63, 0x70, 0xbe, 
0xd5, 0xe8, 0x99, 0x3e, 0x3c, 0x65, 0x7e, 0xbd, 0x4d, 0x21, 0x01, 0x3e, 
0x0a, 0x90, 0xe2, 0xbd, 0x21, 0x7f, 0xca, 0xbe, 0x41, 0x01, 0x42, 0x3f, 
0xad, 0x3d, 0x35, 0x3e, 0xd0, 0xb6, 0x0e, 0xbe, 0x44, 0x6e, 0x10, 0xbd, 
0xe8, 0x4c, 0x92, 0x3e, 0x40, 0xa6, 0x92, 0x3c, 0x7b, 0x55, 0xa6, 0x3e, 
0x43, 0xfd, 0xaf, 0x3e, 0x0c, 0x88, 0x34, 0xbe, 0xad, 0x14, 0xa0, 0x3d, 
0x94, 0x7a, 0x88, 0xbe, 0xa3, 0x41, 0xf6, 0x3e, 0x79, 0xd3, 0x86, 0xbe, 
0xbd, 0x80, 0x66, 0xbe, 0xf6, 0x7c, 0x33, 0xbf, 0x71, 0x42, 0xa4, 0x3e, 
0x98, 0xf4, 0x23, 0xbf, 0xfd, 0x53, 0x8f, 0xbf, 0x38, 0xb0, 0xe9, 0xbe, 
0x36, 0xbc, 0x05, 0x3f, 0x7c, 0x98, 0xe4, 0x3e, 0x7f, 0xad, 0x56, 0x3e, 
0x08, 0xad, 0x40, 0x3d, 0x18, 0xb3, 0xa2, 0xbe, 0xb2, 0xd5, 0x0e, 0xbe, 
0xb8, 0x74, 0x0f, 0x3d, 0xe8, 0xea, 0x3a, 0xbe, 0x90, 0x65, 0x70, 0x3e, 
0xef, 0x56, 0xc7, 0xbd, 0x52, 0xde, 0x29, 0xbe, 0x18, 0xbe, 0xd9, 0xbd, 
0xa0, 0x4e, 0xcd, 0x3c, 0x0f, 0x6b, 0x2d, 0x3e, 0x08, 0x75, 0x82, 0x3d, 
0xdf, 0xc6, 0x55, 0xbe, 0x0c, 0x4f, 0x7d, 0x3d, 0x29, 0x79, 0xb6, 0xbe, 
0xc7, 0x00, 0x83, 0x3e, 0xba, 0x84, 0x18, 0x3e, 0xd7, 0x9c, 0x87, 0xbe, 
0xe7, 0x04, 0x86, 0x3c, 0x86, 0xda, 0x0e, 0x3f, 0xb7, 0x62, 0xaa, 0xbe, 
0x0a, 0x6b, 0xb5, 0x3e, 0xfa, 0x1f, 0x80, 0xbe, 0x80, 0x9b, 0x9e, 0x3e, 
0x9b, 0xd6, 0xbf, 0xbe, 0x7c, 0xb0, 0x15, 0xbe, 0x13, 0xc6, 0x7e, 0x3d, 
0xcf, 0x59, 0xcc, 0xbd, 0x37, 0x6d, 0xb2, 0x3e, 0x45, 0xdb, 0x90, 0x3c, 
0x3b, 0x9c, 0xaa, 0x3d, 0xae, 0x5c, 0xb9, 0x3e, 0xee, 0x6a, 0xb1, 0xbe, 
0x62, 0xbf, 0x17, 0xbe, 0x24, 0x4e, 0x8c, 0x3e, 0x9a, 0xc1, 0x7e, 0x3e, 
0xaa, 0x03, 0x08, 0x3e, 0x0f, 0xa4, 0xf6, 0x3e, 0x1f, 0xbf, 0xe4, 0xbe, 
0xd7, 0x0e, 0xbf, 0xbe, 0xc4, 0x9f, 0xc3, 0xbb, 0x83, 0x5c, 0xa5, 0xbe, 
0xd8, 0x48, 0xad, 0x3e, 0x69, 0x78, 0xa6, 0xbd, 0xd4, 0xbe, 0xea, 0x3e, 
0x94, 0x0a, 0x5d, 0x3e, 0x8d, 0xe8, 0xa9, 0xbe, 0x2c, 0x24, 0x2d, 0x3e, 
0xc4, 0xb7, 0xac, 0xbe, 0x08, 0x73, 0xe6, 0x3d, 0xcd, 0x5a, 0x9e, 0x3c, 
0x87, 0xdf, 0xc9, 0x3c, 0x6b, 0x71, 0xda, 0xbe, 0xb2, 0x0c, 0x26, 0x3e, 
0xa3, 0x1c, 0x5d, 0x3e, 0x4a, 0xcd, 0xb1, 0xbe, 0xf1, 0x20, 0x46, 0xbe, 
0x2e, 0x03, 0x28, 0x3e, 0x00, 0xa3, 0x7e, 0x3c, 0x10, 0x2e, 0xf8, 0xbd, 
0x93, 0x26, 0xac, 0xbe, 0x00, 0x8d, 0x00, 0xbb, 0x39, 0xae, 0x00, 0xbd, 
0x49, 0xac, 0x21, 0xbe, 0xd6, 0x01, 0x06, 0xbe, 0x3d, 0x6f, 0x42, 0x3e, 
0x05, 0x08, 0x9d, 0x3d, 0x3c, 0x02, 0xa5, 0x3d, 0xab, 0x44, 0x95, 0x3e, 
0x1c, 0x2b, 0x4e, 0xbc, 0x1e, 0x8b, 0x64, 0xbe, 0x27, 0xf2, 0x8d, 0xbe, 
0x93, 0x80, 0x28, 0x3e, 0x59, 0xa0, 0xdb, 0x3e, 0x5b, 0xc2, 0x1e, 0x3f, 
0x01, 0xa1, 0x80, 0xbe, 0xc6, 0xb8, 0x09, 0x3e, 0xb6, 0x73, 0xc5, 0xbc, 
0xff, 0x26, 0xc0, 0x3e, 0x1c, 0x0e, 0x13, 0xbd, 0x86, 0xe0, 0xa2, 0xbe, 
0x3a, 0x6f, 0x0d, 0xbe, 0xe7, 0x27, 0x93, 0x3e, 0xcd, 0xc7, 0x57, 0x3d, 
0x00, 0x7d, 0x1a, 0xbe, 0x57, 0x65, 0xaf, 0x3e, 0xe1, 0xb3, 0xd8, 0x3d, 
0x24, 0x52, 0xd8, 0xbe, 0x87, 0x54, 0xa2, 0xbe, 0x37, 0x26, 0xdd, 0x3e, 
0x22, 0xfa, 0x8c, 0xbe, 0xf8, 0x80, 0x18, 0xbd, 0x8e, 0x95, 0xbc, 0xbe, 
0x22, 0x7d, 0x9d, 0x3e, 0x5c, 0x33, 0xae, 0xbe, 0x26, 0xc8, 0x3b, 0x3e, 
0xd6, 0xc7, 0x2a, 0x3e, 0x54, 0xcd, 0xa7, 0xbe, 0x3a, 0x06, 0x96, 0x3e, 
0x24, 0xa4, 0xad, 0x3d, 0x8a, 0xf2, 0xd2, 0x3e, 0x2d, 0xae, 0x67, 0x3e, 
0x33, 0xa2, 0xb9, 0x3e, 0x77, 0x8f, 0xe4, 0xbe, 0x31, 0x86, 0x0f, 0xbe, 
0x29, 0x90, 0xc4, 0xbe, 0xae, 0x85, 0xa6, 0xbd, 0x2b, 0xda, 0x71, 0xba, 
0x32, 0x52, 0x30, 0xba, 0x11, 0x1d, 0x66, 0xbe, 0x51, 0x92, 0x4b, 0xbe, 
0x56, 0xe0, 0x09, 0x3e, 0x32, 0x8d, 0x04, 0x3e, 0x75, 0x19, 0xd7, 0x3d, 
0x00, 0x00, 0x06, 0x00, 0x08, 0x00, 0x04, 0x00, 0x06, 0x00, 0x00, 0x00, 
0x04, 0x00, 0x00, 0x00, 0x80, 0x00, 0x00, 0x00, 0x15, 0x9a, 0xa0, 0xbe, 
0x6d, 0x75, 0x13, 0x3e, 0x70, 0xe4, 0xed, 0xbe, 0x88, 0xaf, 0x8f, 0xbe, 
0xf4, 0xdc, 0xb6, 0xbe, 0xb5, 0x1a, 0x13, 0xbd, 0x3f, 0x02, 0x27, 0xbf, 
0x26, 0x95, 0x5c, 0x3c, 0xa6, 0x08, 0x51, 0x3e, 0x5b, 0x0d, 0xcc, 0xbe, 
0x53, 0xa4, 0x1a, 0x3f, 0x07, 0x7f, 0xca, 0x3e, 0xe3, 0x30, 0xfa, 0xbe, 
0xf6, 0x65, 0xcd, 0x3e, 0x5f, 0x03, 0x1b, 0xbd, 0x9c, 0x7a, 0x1a, 0xbe, 
0x46, 0xcc, 0xeb, 0xbe, 0x5d, 0x4d, 0x8d, 0xbe, 0x9c, 0x0f, 0x53, 0xbe, 
0xed, 0x99, 0x0c, 0xbf, 0xf1, 0x67, 0xd1, 0x3e, 0x6c, 0xa3, 0x40, 0xbe, 
0xbb, 0xca, 0x57, 0x3e, 0x8c, 0xed, 0x09, 0xbf, 0x96, 0x9d, 0xe8, 0x3e, 
0xf1, 0xd3, 0xfc, 0xbd, 0x77, 0xf3, 0x15, 0x3f, 0x22, 0xa9, 0x4a, 0xbe, 
0x0d, 0x7f, 0x0a, 0xbf, 0x44, 0xc8, 0xae, 0xbe, 0x30, 0xc6, 0x01, 0xbf, 
0xa0, 0xa2, 0xca, 0xbd, 0x1c, 0xfb, 0xff, 0xff, 0x20, 0xfb, 0xff, 0xff, 
0x0f, 0x00, 0x00, 0x00, 0x4d, 0x4c, 0x49, 0x52, 0x20, 0x43, 0x6f, 0x6e, 
0x76, 0x65, 0x72, 0x74, 0x65, 0x64, 0x2e, 0x00, 0x01, 0x00, 0x00, 0x00, 
0x14, 0x00, 0x00, 0x00, 0x00, 0x00, 0x0e, 0x00, 0x18, 0x00, 0x14, 0x00, 
0x10, 0x00, 0x0c, 0x00, 0x08, 0x00, 0x04, 0x00, 0x0e, 0x00, 0x00, 0x00, 
0x14, 0x00, 0x00, 0x00, 0x1c, 0x00, 0x00, 0x00, 0xd8, 0x00, 0x00, 0x00, 
0xdc, 0x00, 0x00, 0x00, 0xe0, 0x00, 0x00, 0x00, 0x04, 0x00, 0x00, 0x00, 
0x6d, 0x61, 0x69, 0x6e, 0x00, 0x00, 0x00, 0x00, 0x03, 0x00, 0x00, 0x00, 
0x80, 0x00, 0x00, 0x00, 0x38, 0x00, 0x00, 0x00, 0x04, 0x00, 0x00, 0x00, 
0x9a, 0xff, 0xff, 0xff, 0x10, 0x00, 0x00, 0x00, 0x00, 0x00, 0x00, 0x08, 
0x0c, 0x00, 0x00, 0x00, 0x10, 0x00, 0x00, 0x00, 0x98, 0xfb, 0xff, 0xff, 
0x01, 0x00, 0x00, 0x00, 0x09, 0x00, 0x00, 0x00, 0x03, 0x00, 0x00, 0x00, 
0x08, 0x00, 0x00, 0x00, 0x01, 0x00, 0x00, 0x00, 0x03, 0x00, 0x00, 0x00, 
0xca, 0xff, 0xff, 0xff, 0x10, 0x00, 0x00, 0x00, 0x00, 0x00, 0x00, 0x08, 
0x10, 0x00, 0x00, 0x00, 0x14, 0x00, 0x00, 0x00, 0xba, 0xff, 0xff, 0xff, 
0x00, 0x00, 0x00, 0x01, 0x01, 0x00, 0x00, 0x00, 0x08, 0x00, 0x00, 0x00, 
0x03, 0x00, 0x00, 0x00, 0x07, 0x00, 0x00, 0x00, 0x02, 0x00, 0x00, 0x00, 
0x04, 0x00, 0x00, 0x00, 0x00, 0x00, 0x0e, 0x00, 0x16, 0x00, 0x00, 0x00, 
0x10, 0x00, 0x0c, 0x00, 0x0b, 0x00, 0x04, 0x00, 0x0e, 0x00, 0x00, 0x00, 
0x18, 0x00, 0x00, 0x00, 0x00, 0x00, 0x00, 0x08, 0x18, 0x00, 0x00, 0x00, 
0x1c, 0x00, 0x00, 0x00, 0x00, 0x00, 0x06, 0x00, 0x08, 0x00, 0x07, 0x00, 
0x06, 0x00, 0x00, 0x00, 0x00, 0x00, 0x00, 0x01, 0x01, 0x00, 0x00, 0x00, 
0x07, 0x00, 0x00, 0x00, 0x03, 0x00, 0x00, 0x00, 0x00, 0x00, 0x00, 0x00, 
0x06, 0x00, 0x00, 0x00, 0x05, 0x00, 0x00, 0x00, 0x01, 0x00, 0x00, 0x00, 
0x09, 0x00, 0x00, 0x00, 0x01, 0x00, 0x00, 0x00, 0x00, 0x00, 0x00, 0x00, 
0x0a, 0x00, 0x00, 0x00, 0x90, 0x03, 0x00, 0x00, 0x38, 0x03, 0x00, 0x00, 
0xe0, 0x02, 0x00, 0x00, 0xa4, 0x02, 0x00, 0x00, 0x48, 0x02, 0x00, 0x00, 
0xec, 0x01, 0x00, 0x00, 0x9c, 0x01, 0x00, 0x00, 0x00, 0x01, 0x00, 0x00, 
0x60, 0x00, 0x00, 0x00, 0x04, 0x00, 0x00, 0x00, 0xae, 0xfc, 0xff, 0xff, 
0x00, 0x00, 0x00, 0x01, 0x14, 0x00, 0x00, 0x00, 0x1c, 0x00, 0x00, 0x00, 
0x1c, 0x00, 0x00, 0x00, 0x0a, 0x00, 0x00, 0x00, 0x34, 0x00, 0x00, 0x00, 
0x02, 0x00, 0x00, 0x00, 0xff, 0xff, 0xff, 0xff, 0x02, 0x00, 0x00, 0x00, 
0x98, 0xfc, 0xff, 0xff, 0x1b, 0x00, 0x00, 0x00, 0x53, 0x74, 0x61, 0x74, 
0x65, 0x66, 0x75, 0x6c, 0x50, 0x61, 0x72, 0x74, 0x69, 0x74, 0x69, 0x6f, 
0x6e, 0x65, 0x64, 0x43, 0x61, 0x6c, 0x6c, 0x5f, 0x31, 0x3a, 0x30, 0x00, 
0x02, 0x00, 0x00, 0x00, 0x01, 0x00, 0x00, 0x00, 0x02, 0x00, 0x00, 0x00, 
0x06, 0xfd, 0xff, 0xff, 0x00, 0x00, 0x00, 0x01, 0x14, 0x00, 0x00, 0x00, 
0x1c, 0x00, 0x00, 0x00, 0x1c, 0x00, 0x00, 0x00, 0x09, 0x00, 0x00, 0x00, 
0x78, 0x00, 0x00, 0x00, 0x02, 0x00, 0x00, 0x00, 0xff, 0xff, 0xff, 0xff, 
0x10, 0x00, 0x00, 0x00, 0xf0, 0xfc, 0xff, 0xff, 0x5e, 0x00, 0x00, 0x00, 
0x73, 0x65, 0x71, 0x75, 0x65, 0x6e, 0x74, 0x69, 0x61, 0x6c, 0x5f, 0x31, 
0x5f, 0x31, 0x2f, 0x64, 0x65, 0x6e, 0x73, 0x65, 0x5f, 0x31, 0x5f, 0x32, 
0x2f, 0x4d, 0x61, 0x74, 0x4d, 0x75, 0x6c, 0x3b, 0x73, 0x65, 0x71, 0x75, 
0x65, 0x6e, 0x74, 0x69, 0x61, 0x6c, 0x5f, 0x31, 0x5f, 0x31, 0x2f, 0x64, 
0x65, 0x6e, 0x73, 0x65, 0x5f, 0x31, 0x5f, 0x32, 0x2f, 0x52, 0x65, 0x6c, 
0x75, 0x3b, 0x73, 0x65, 0x71, 0x75, 0x65, 0x6e, 0x74, 0x69, 0x61, 0x6c, 
0x5f, 0x31, 0x5f, 0x31, 0x2f, 0x64, 0x65, 0x6e, 0x73, 0x65, 0x5f, 0x31, 
0x5f, 0x32, 0x2f, 0x42, 0x69, 0x61, 0x73, 0x41, 0x64, 0x64, 0x00, 0x00, 
0x02, 0x00, 0x00, 0x00, 0x01, 0x00, 0x00, 0x00, 0x10, 0x00, 0x00, 0x00, 
0xa2, 0xfd, 0xff, 0xff, 0x00, 0x00, 0x00, 0x01, 0x14, 0x00, 0x00, 0x00, 
0x1c, 0x00, 0x00, 0x00, 0x1c, 0x00, 0x00, 0x00, 0x08, 0x00, 0x00, 0x00, 
0x74, 0x00, 0x00, 0x00, 0x02, 0x00, 0x00, 0x00, 0xff, 0xff, 0xff, 0xff, 
0x10, 0x00, 0x00, 0x00, 0x8c, 0xfd, 0xff, 0xff, 0x58, 0x00, 0x00, 0x00, 
0x73, 0x65, 0x71, 0x75, 0x65, 0x6e, 0x74, 0x69, 0x61, 0x6c, 0x5f, 0x31, 
0x5f, 0x31, 0x2f, 0x64, 0x65, 0x6e, 0x73, 0x65, 0x5f, 0x31, 0x2f, 0x4d, 
0x61, 0x74, 0x4d, 0x75, 0x6c, 0x3b, 0x73, 0x65, 0x71, 0x75, 0x65, 0x6e, 
0x74, 0x69, 0x61, 0x6c, 0x5f, 0x31, 0x5f, 0x31, 0x2f, 0x64, 0x65, 0x6e, 
0x73, 0x65, 0x5f, 0x31, 0x2f, 0x52, 0x65, 0x6c, 0x75, 0x3b, 0x73, 0x65, 
0x71, 0x75, 0x65, 0x6e, 0x74, 0x69, 0x61, 0x6c, 0x5f, 0x31, 0x5f, 0x31, 
0x2f, 0x64, 0x65, 0x6e, 0x73, 0x65, 0x5f, 0x31, 0x2f, 0x42, 0x69, 0x61, 
0x73, 0x41, 0x64, 0x64, 0x00, 0x00, 0x00, 0x00, 0x02, 0x00, 0x00, 0x00, 
0x01, 0x00, 0x00, 0x00, 0x10, 0x00, 0x00, 0x00, 0x8e, 0xfe, 0xff, 0xff, 
0x00, 0x00, 0x00, 0x01, 0x10, 0x00, 0x00, 0x00, 0x10, 0x00, 0x00, 0x00, 
0x07, 0x00, 0x00, 0x00, 0x2c, 0x00, 0x00, 0x00, 0x14, 0xfe, 0xff, 0xff, 
0x1d, 0x00, 0x00, 0x00, 0x73, 0x65, 0x71, 0x75, 0x65, 0x6e, 0x74, 0x69, 
0x61, 0x6c, 0x5f, 0x31, 0x5f, 0x31, 0x2f, 0x64, 0x65, 0x6e, 0x73, 0x65, 
0x5f, 0x31, 0x2f, 0x4d, 0x61, 0x74, 0x4d, 0x75, 0x6c, 0x00, 0x00, 0x00, 
0x02, 0x00, 0x00, 0x00, 0x10, 0x00, 0x00, 0x00, 0x06, 0x00, 0x00, 0x00, 
0xda, 0xfe, 0xff, 0xff, 0x00, 0x00, 0x00, 0x01, 0x10, 0x00, 0x00, 0x00, 
0x10, 0x00, 0x00, 0x00, 0x06, 0x00, 0x00, 0x00, 0x3c, 0x00, 0x00, 0x00, 
0x60, 0xfe, 0xff, 0xff, 0x2d, 0x00, 0x00, 0x00, 0x73, 0x65, 0x71, 0x75, 
0x65, 0x6e, 0x74, 0x69, 0x61, 0x6c, 0x5f, 0x31, 0x5f, 0x31, 0x2f, 0x64, 
0x65, 0x6e, 0x73, 0x65, 0x5f, 0x31, 0x2f, 0x42, 0x69, 0x61, 0x73, 0x41, 
0x64, 0x64, 0x2f, 0x52, 0x65, 0x61, 0x64, 0x56, 0x61, 0x72, 0x69, 0x61, 
0x62, 0x6c, 0x65, 0x4f, 0x70, 0x00, 0x00, 0x00, 0x01, 0x00, 0x00, 0x00, 
0x10, 0x00, 0x00, 0x00, 0x32, 0xff, 0xff, 0xff, 0x00, 0x00, 0x00, 0x01, 
0x10, 0x00, 0x00, 0x00, 0x10, 0x00, 0x00, 0x00, 0x05, 0x00, 0x00, 0x00, 
0x3c, 0x00, 0x00, 0x00, 0xb8, 0xfe, 0xff, 0xff, 0x2f, 0x00, 0x00, 0x00, 
0x73, 0x65, 0x71, 0x75, 0x65, 0x6e, 0x74, 0x69, 0x61, 0x6c, 0x5f, 0x31, 
0x5f, 0x31, 0x2f, 0x64, 0x65, 0x6e, 0x73, 0x65, 0x5f, 0x31, 0x5f, 0x32, 
0x2f, 0x42, 0x69, 0x61, 0x73, 0x41, 0x64, 0x64, 0x2f, 0x52, 0x65, 0x61, 
0x64, 0x56, 0x61, 0x72, 0x69, 0x61, 0x62, 0x6c, 0x65, 0x4f, 0x70, 0x00, 
0x01, 0x00, 0x00, 0x00, 0x10, 0x00, 0x00, 0x00, 0x8a, 0xff, 0xff, 0xff, 
0x00, 0x00, 0x00, 0x01, 0x10, 0x00, 0x00, 0x00, 0x10, 0x00, 0x00, 0x00, 
0x04, 0x00, 0x00, 0x00, 0x1c, 0x00, 0x00, 0x00, 0x10, 0xff, 0xff, 0xff, 
0x0f, 0x00, 0x00, 0x00, 0x61, 0x72, 0x69, 0x74, 0x68, 0x2e, 0x63, 0x6f, 
0x6e, 0x73, 0x74, 0x61, 0x6e, 0x74, 0x32, 0x00, 0x01, 0x00, 0x00, 0x00, 
0x02, 0x00, 0x00, 0x00, 0xc2, 0xff, 0xff, 0xff, 0x00, 0x00, 0x00, 0x01, 
0x10, 0x00, 0x00, 0x00, 0x10, 0x00, 0x00, 0x00, 0x03, 0x00, 0x00, 0x00, 
0x1c, 0x00, 0x00, 0x00, 0x48, 0xff, 0xff, 0xff, 0x0f, 0x00, 0x00, 0x00, 
0x61, 0x72, 0x69, 0x74, 0x68, 0x2e, 0x63, 0x6f, 0x6e, 0x73, 0x74, 0x61, 
0x6e, 0x74, 0x31, 0x00, 0x02, 0x00, 0x00, 0x00, 0x10, 0x00, 0x00, 0x00, 
0x10, 0x00, 0x00, 0x00, 0x00, 0x00, 0x16, 0x00, 0x18, 0x00, 0x14, 0x00, 
0x00, 0x00, 0x10, 0x00, 0x0c, 0x00, 0x08, 0x00, 0x00, 0x00, 0x00, 0x00, 
0x00, 0x00, 0x07, 0x00, 0x16, 0x00, 0x00, 0x00, 0x00, 0x00, 0x00, 0x01, 
0x10, 0x00, 0x00, 0x00, 0x10, 0x00, 0x00, 0x00, 0x02, 0x00, 0x00, 0x00, 
0x1c, 0x00, 0x00, 0x00, 0x9c, 0xff, 0xff, 0xff, 0x0e, 0x00, 0x00, 0x00, 
0x61, 0x72, 0x69, 0x74, 0x68, 0x2e, 0x63, 0x6f, 0x6e, 0x73, 0x74, 0x61, 
0x6e, 0x74, 0x00, 0x00, 0x02, 0x00, 0x00, 0x00, 0x02, 0x00, 0x00, 0x00, 
0x10, 0x00, 0x00, 0x00, 0x00, 0x00, 0x16, 0x00, 0x1c, 0x00, 0x18, 0x00, 
0x00, 0x00, 0x14, 0x00, 0x10, 0x00, 0x0c, 0x00, 0x00, 0x00, 0x00, 0x00, 
0x08, 0x00, 0x07, 0x00, 0x16, 0x00, 0x00, 0x00, 0x00, 0x00, 0x00, 0x01, 
0x14, 0x00, 0x00, 0x00, 0x20, 0x00, 0x00, 0x00, 0x20, 0x00, 0x00, 0x00, 
0x01, 0x00, 0x00, 0x00, 0x3c, 0x00, 0x00, 0x00, 0x02, 0x00, 0x00, 0x00, 
0xff, 0xff, 0xff, 0xff, 0x06, 0x00, 0x00, 0x00, 0x04, 0x00, 0x04, 0x00, 
0x04, 0x00, 0x00, 0x00, 0x1e, 0x00, 0x00, 0x00, 0x73, 0x65, 0x72, 0x76, 
0x69, 0x6e, 0x67, 0x5f, 0x64, 0x65, 0x66, 0x61, 0x75, 0x6c, 0x74, 0x5f, 
0x6b, 0x65, 0x72, 0x61, 0x73, 0x5f, 0x74, 0x65, 0x6e, 0x73, 0x6f, 0x72, 
0x3a, 0x30, 0x00, 0x00, 0x02, 0x00, 0x00, 0x00, 0x01, 0x00, 0x00, 0x00, 
0x06, 0x00, 0x00, 0x00, 0x01, 0x00, 0x00, 0x00, 0x10, 0x00, 0x00, 0x00, 
0x0c, 0x00, 0x0c, 0x00, 0x0b, 0x00, 0x00, 0x00, 0x00, 0x00, 0x04, 0x00, 
0x0c, 0x00, 0x00, 0x00, 0x09, 0x00, 0x00, 0x00, 0x00, 0x00, 0x00, 0x09, 

};
const int model_len = 3576;
